/**
  ******************************************************************************
  * @file    myai_data_params.c
  * @author  AST Embedded Analytics Research Platform
  * @date    2025-06-14T21:55:41+0200
  * @brief   AI Tool Automatic Code Generator for Embedded NN computing
  ******************************************************************************
  * Copyright (c) 2025 STMicroelectronics.
  * All rights reserved.
  *
  * This software is licensed under terms that can be found in the LICENSE file
  * in the root directory of this software component.
  * If no LICENSE file comes with this software, it is provided AS-IS.
  ******************************************************************************
  */

#include "myai_data_params.h"


/**  Activations Section  ****************************************************/
ai_handle g_myai_activations_table[1 + 2] = {
  AI_HANDLE_PTR(AI_MAGIC_MARKER),
  AI_HANDLE_PTR(NULL),
  AI_HANDLE_PTR(AI_MAGIC_MARKER),
};




/**  Weights Section  ********************************************************/
AI_ALIGNED(32)
const ai_u64 s_myai_weights_array_u64[1922] = {
  0x3ccbcd653e091d61U, 0x3e51b5953ecbfd7cU, 0x3e72862fbd8e6a4cU, 0xbe231369bdabeb2fU,
  0x3e7920bc3e9b0470U, 0xbd38a3c93e1e69f9U, 0xbe3e14b33dda3031U, 0xbe5167323ed6f926U,
  0xbea87c8c3eb9e5b1U, 0xbf3a435dbd7cf53fU, 0xbe8f94f03e7b2536U, 0xba8387f63edb3842U,
  0x3ec5e6e5be0df2e0U, 0xbd5697d93f12d4fcU, 0xbe68a674bea06ac8U, 0x3e8d2586beb41abdU,
  0xbed15ad23ef9c404U, 0x3eeb55c83ee016e8U, 0x3e7fb1493e78dc87U, 0x3e96d127be941d02U,
  0x3db64aea3efcb628U, 0xbde834da3d96432eU, 0xbf0af0b3bc465d5eU, 0x3e38796c3f1b494aU,
  0xbc8992d8bced4c44U, 0xbe25b84bbcacf019U, 0x3e6c349cbbfef9fcU, 0x3ed9ae013e65e64eU,
  0xbcb1cf52bea46fc2U, 0x3e916f783e3d3746U, 0xbe936d733d8bb169U, 0xbebce5a2be82120eU,
  0x3e98b4d13d45c7d6U, 0x3e2d6b46bd9f251fU, 0x3e4ec0c0bc341a88U, 0x3e9b4bedbe2055bdU,
  0x3df52eb9bdba8623U, 0xbd9a407d3e5c358aU, 0x3eaacf463e9a677dU, 0x3e2f26f63d80a67eU,
  0x3baf6ba93dacf70cU, 0x3d7d5b343d9fa8bbU, 0x3e9f5cce3ec03259U, 0xbcd29cfa3df3691bU,
  0xbf13740e3d81b4d4U, 0x3e4f5b493f1e6e01U, 0xbe6a14063dbe91baU, 0x3defc4753dc9e8eeU,
  0xbe1d15b23d2f9e6dU, 0x3eb2f911be3540c5U, 0x3ebbad513d801b68U, 0xbca88885bd89ba6aU,
  0xbd36d51ebe6db1acU, 0x3e83edf03e990a80U, 0x3e803b293ebec602U, 0x3d070e87be91381eU,
  0xbf2c78733e1a2ad1U, 0x3e56037cbf18628aU, 0xbf06781c3e5e4412U, 0x3ec3efeebeee235bU,
  0xbe5513a43e9e6d5aU, 0xbd29c1a73dfdb344U, 0xbe97c4763ded982bU, 0xbeaa6aa9bdeaaeacU,
  0x3e1185d0be6e9846U, 0x3e8587a3be8750eeU, 0x3ecaf4a53e26631aU, 0x3dcab5453eb07869U,
  0x3e31ad2cbdb1e2b7U, 0x3e2d1252be88982cU, 0x3de5bb953ec61625U, 0xbef068b03eea1e2aU,
  0xbe2481babdacfd4bU, 0x3ed786fbbd81a2e1U, 0x3eb6012bbd4ca819U, 0xbe838a643e8265cfU,
  0xbe508daebe95155fU, 0xbe57e9d8be810a18U, 0xbd1841883e4867aaU, 0xbe077febbe8a3422U,
  0xbdfc4af93cb62a72U, 0xbd8a88cebdf8f704U, 0x3e864934be7452c7U, 0x3ed3df10bf259d29U,
  0xbdf3af21be2e5c5cU, 0xbe3867adbdfbadf1U, 0x3e70e29d3e610fbaU, 0x3e1c6da73d257056U,
  0x3dca9b80bd93c590U, 0x3d94b41a3e668e93U, 0xbe08cca1be86a699U, 0xbcfa032abeca017cU,
  0xbc3eda183ead0e39U, 0xbdbfc311bde666bfU, 0xbe6b60dd3dde0b69U, 0x3d5051b2bee5aae2U,
  0xbeb7cd9b3f12966cU, 0xbf27144abf3530bfU, 0xbf1689553ee5604eU, 0x3f081dcebd4ca85eU,
  0x3d635a013ef69e6eU, 0xbddfe9cabe196242U, 0xbe1c298cbdd2c97dU, 0x3e25ce223ea3e41eU,
  0x3f06ea413e271ef6U, 0xbe9e431f3e878806U, 0x3e143ef1be6dc4c8U, 0x3e1dd8fc3cf488bcU,
  0xbdcbf4a93ebddb3bU, 0xbe8450c93da8920fU, 0x3e92ebfa3f0467b7U, 0xbe2e3899bd9d48d8U,
  0xbe3f2804bd095ebcU, 0xbc617ca23ed93569U, 0x3ea0ec6e3e4f1fe2U, 0xbed21eb7bedaca36U,
  0x3ea134b7beaf03c8U, 0x3e38c36c3cb002ecU, 0x3e1a7389bdffd565U, 0x3e0267503e93488aU,
  0x3e3526a8bd1551adU, 0x3ea8a3ffbe50d70cU, 0xbd83dddb3e46766cU, 0xbe93ed6bbeb001b3U,
  0xbe67697fbe1a5f0bU, 0xbd888e5e3e97d827U, 0xbd8de9273e235897U, 0x3e7c54473d9c329fU,
  0xbec2eaf9bd9004bfU, 0xbe28f3dfbdd85d87U, 0xbd99e8cdbcfa3c2cU, 0x3d05c6773d03e1d4U,
  0x3f1d6950bded107bU, 0x3d98c38abea9616dU, 0x3e0d790f3e962e70U, 0xbe4f478b3db6e45eU,
  0xbdcd4929be829aa8U, 0x3ed3c18dbd8a657bU, 0x3d35d4f8bdbdc6c9U, 0xbd893fde3e95ba81U,
  0xbe47e9f03e4c9408U, 0xbf032dbcbe89ab8bU, 0x3e523a35be1fb03bU, 0x3dd64726bd4666c0U,
  0x3eb54c04be959494U, 0xbbb0715abe6cf6d0U, 0xbdd7aad3be41394fU, 0xbdf846d83e9e84fbU,
  0xbdd7c923be991931U, 0xbdd5829dbe926dedU, 0x3e1cab6bbecff219U, 0xbed29266be3476d4U,
  0x3ec40fb2be3733cbU, 0xbe90aaa0be3fda28U, 0xbed976d73e93c982U, 0x3c002886be8250ddU,
  0xbc728915be69eff0U, 0x3d0269493d800455U, 0x3e1a335a3e8fb1c2U, 0x3e26e7843cea3b97U,
  0x3db53e943dcdddd6U, 0xbd491e66bd308b3dU, 0xbe25b5adba84836cU, 0x3edb0abc3e9a4b90U,
  0x3eb0e8f83e9e5c6bU, 0x3d9f3dbbbccddc8aU, 0xbec927c33e8cdf63U, 0xbe8061d5bd48e0e8U,
  0x3ea48cc13d7ba23cU, 0x3dab798abe095527U, 0xbdc4501ebef469a4U, 0x3d49044c3e5bd886U,
  0xbe11b66dbe46f1d1U, 0x3de9df023e00192fU, 0x3eb206393eba42a2U, 0x3c73f1823d1ac0c2U,
  0x3f03fbd2bb7bb439U, 0x3db12bccbf1460d7U, 0x3e5e43c4be06c990U, 0x3e9471d23c98912bU,
  0xbe724a913e2665c5U, 0x3f1d0fdabca27c94U, 0xbe20cbf4be8732d1U, 0xbf0aa84bbebe6fc5U,
  0x3e66f4ce3cafa944U, 0x3ef1f8333ebfb93eU, 0xbe515db2bd9c3718U, 0x3dc0f7f73dcc7cf2U,
  0x3d94b37e3ec0417cU, 0x3ddc54a53e14b2deU, 0x3f15a54fbd1d9e51U, 0x3e03b0143ea84304U,
  0x3d3ed8933e0e964dU, 0x3f05145b3cbf82ddU, 0xbe6b38c63dcc7663U, 0x3e94497ebddc36caU,
  0xbebbe4e33e0b8401U, 0xbd886f813e826365U, 0x3e7f6272bd967515U, 0xbe350c9ebcc713bbU,
  0xbdfbca8cbdb1e511U, 0x3e83db623c264a26U, 0x3e5ef00b3da0da33U, 0xbc98aa1a3e088587U,
  0x3edf8e163e911d96U, 0xbe36b660be88746aU, 0xbe8e6e18be371472U, 0x3e8e467b3ec56536U,
  0x3e7a90ac3e77daa4U, 0xbca269b23e14bbbdU, 0x3e3383b33f0f50a8U, 0xbd949164bd7f56c0U,
  0xbe75f9cebe833dc0U, 0x3e20e55c3ec8249aU, 0x3d5bf30d3ec95b37U, 0xbe2f0aa3bc922986U,
  0x3d94422bbe8e4818U, 0xbead460f3ea92119U, 0xbe8b6af23ec91a7cU, 0xbd9c2523be5c232dU,
  0x3f187468bec9e8ffU, 0x3e660f563eddbcb9U, 0xbdee1ab93e0d6a64U, 0x3d9a073a3e51be87U,
  0xbee569efbc839bf9U, 0x3e75790fbe26a2d7U, 0x3e7094d8be84b6f4U, 0x3d1e8d273ef6eb09U,
  0x3e160557be346e22U, 0xbed5b3f43d3f2e69U, 0x3ebca025bc2279deU, 0xbe53efaabea8361bU,
  0x3e2c4245bee375daU, 0xbeb993bc3eaf88d7U, 0xbdb370683e0e7e35U, 0xbe2d70b53d957911U,
  0xbe0e6d2e3e12c21aU, 0x3f068c48bd0168b2U, 0x3ce3a381be4dca8bU, 0x3e52f12cbe1231adU,
  0x3dbb522f3f168248U, 0xbe4db7fc3ec4911bU, 0x3e3080dcbe977a24U, 0xbd8c5bd53e82f48bU,
  0xbe3577b43da60ac4U, 0x3e753397be89a1faU, 0x3dece6dc3ea2f50cU, 0xbe8295a9bcf21427U,
  0xbee136b13f28f918U, 0x3ea3cc073e110272U, 0x3e40a03a3d9bdf0aU, 0x3cbd42cabd84b5eaU,
  0xbdfdf6113be22d4fU, 0x3eaba2a7be0f83fcU, 0xbe83c5b1be5482abU, 0xbf2197463ea0d365U,
  0xbee3fa1ebe6e15f6U, 0xbe466c8d3f128ba6U, 0xbe4dd716befc7c65U, 0x3f139bc6bd031a5dU,
  0x3ea54f84be9aa20bU, 0xbe52fd6a3e825ab8U, 0x3ec8ebf1bd9a5dc6U, 0x3abbb63abe086f1dU,
  0x3e9c0f86be068434U, 0x3e9e5d63bec873e3U, 0xbebfe18ebe45deb5U, 0x3e0047f53e4412feU,
  0xbeda1c313eaabb11U, 0x3e3799f63e338ce5U, 0x3eedad323e2f210aU, 0xbce92fa63c511c20U,
  0x3cfbecf3bda7bd6eU, 0x3e53490e3e9d1714U, 0x3cc729813e684cc7U, 0xbed44d36bea61b9eU,
  0x3d405ec83ed91ad4U, 0x3d318f8abe1a3d9cU, 0x3e81b3503da1f260U, 0x3e2fbf853decaefeU,
  0xbc791b1d3d223a4aU, 0x3ed6a8ab3eef5deeU, 0xbe0d86dcbe0a44f8U, 0xbcc10bbbbe3f617bU,
  0x3ebb58253e7677dbU, 0x3e379af93d30e3d4U, 0xbee9d2d43ec2b8a5U, 0xbcb920593e87dbffU,
  0xbe7eeeff3eb8f20bU, 0x3e5c0a8e3e0623e6U, 0x3ec5a990be2a5b34U, 0x3e91b3f63d964311U,
  0x3f0f2f30bd14f87aU, 0x3cefeb31be3023c2U, 0xbe76e1a8bd64af25U, 0x3f0f82353ee2a10eU,
  0x3ee241213e9dfe0cU, 0xbe4eae6c3ec3c143U, 0xbef52b8c3ebc59daU, 0xbeae00bc3dd8fef1U,
  0x3eb45755bdc73eebU, 0xbdac9c08bd8b9fb9U, 0x3f1cd7383d9866cdU, 0x38a03fa8bee3cbc4U,
  0x3c4b9796be8b8d53U, 0xbe2bcff1be4410b2U, 0x3de1633f3e90f275U, 0x3ea6ec323e9ba1afU,
  0x3e97558b3db2af9dU, 0x3e854384bea776e2U, 0x3dbd68403e9ead07U, 0x3db530b43e7f8e64U,
  0xbe1ade58be3d5965U, 0xbe3755d5bea0f210U, 0xbe8cf0093efcb107U, 0x3d2fecf1be5f8d71U,
  0xbe23a56abe18503cU, 0xbe378576bd7321eaU, 0x3e0441b2be3aba4fU, 0xbcd1b533be36840eU,
  0xbe796f3c3e7a67a1U, 0xbe9643943c49182eU, 0xbec4c013be814b4cU, 0xbe91e370be364b5aU,
  0xbdc341c63d24a8f6U, 0x3e9048783eff21b5U, 0xbe856baa3e2e1324U, 0x3dbb3ee3bd23fa7fU,
  0xbeb5ab21bde44557U, 0x3e09a1113d3e7f6eU, 0x3f0590b93e678d76U, 0x3d9772d3be02f6fdU,
  0x3e367e973b8fe0a1U, 0x3ef1e21cbf001496U, 0xbde04610bdbadfebU, 0x3efa51bf3e8e00baU,
  0xbc9b122b3e2c2e52U, 0x3dc1db483e822aefU, 0xbe184ff4be801feeU, 0xbe3eaeedbe947cbdU,
  0x3dfcec2d3e68eb9aU, 0xbe49f0033e2f784dU, 0x3ea16371be1d8236U, 0xbe5689d13edc4e28U,
  0xbde7f49dbe788c8dU, 0x3ee1b290beb32b27U, 0xbec811203eb8766cU, 0xbd0e6f9b3f1a3d7aU,
  0xbe234563be324ba9U, 0x3d67703b3e4e1fd4U, 0x3dbd67c83e36d233U, 0xbe00460bbe843d89U,
  0xbd1de10a3ea3a29fU, 0x3e9a8fd1bdbf4792U, 0xbe7e10823ecbc221U, 0xbf0aed07be95eb19U,
  0x3ec8db57be9abfb9U, 0xbe34746f3eb5c3d6U, 0x3e8dbd8d3ca2904cU, 0xbe83d995bdabfad3U,
  0xbe802acc3b95e949U, 0x3eaa8c0c3ee701a9U, 0x3d0c8b633e6f8779U, 0xbe4eaa823f13e864U,
  0xbdef7ad73e9b952cU, 0xbce0914c3d6d1b07U, 0x3eb9890f3e5db7aaU, 0x3e7fceebbc37af28U,
  0x3ea0845cbd042a6dU, 0xbe96b651bd0b3013U, 0xbed726dbbe9a9c35U, 0x3e836d4b3eb69e76U,
  0x3f165cad3eec48aeU, 0xbb79ea2cbe3f8337U, 0x3ece2d10be5160f4U, 0x3eb32750beb15636U,
  0x3c331ab2bec067d9U, 0x3e1baee83e82ddf7U, 0xbf0377ab3ddf3a64U, 0xbf1e60a33e1aa379U,
  0x3e6000853e31b0d5U, 0x3cb429043ce60266U, 0x3ab8bdf63e85bf86U, 0x3d709077be3c530dU,
  0xbdcd12d8bd83ff9cU, 0xbe16ab3d3d859906U, 0xbdc988713e88624bU, 0x3da860363db6fe56U,
  0xbc9272743d0b97f6U, 0xbc9d1c963d1ad97dU, 0xbc549213bd3be129U, 0x3e3f1ad13f06cfb2U,
  0x3e8d020ebf0b0589U, 0x3da1ab4a3e801d51U, 0xbf033261be9eb7beU, 0xbe87ac8a3e878c26U,
  0x3d99b7c33f0a4134U, 0xbcaf5a71bf12d746U, 0x3e27d19f3e4a952dU, 0x3d8058833dbdb1ccU,
  0x3cd316b73beefe8cU, 0xbd9e9336bd8162feU, 0x3edad8283e84a0edU, 0xbddfc637be256d71U,
  0x3d398c0bbef754dbU, 0xbee412ab3eb5bbafU, 0xbdee56bdbd8ffac9U, 0xbf05f1113e9db854U,
  0x3cbc87313f147dafU, 0xbd8da132beac453eU, 0xbda67f6cbdf7794fU, 0x3e0a087b3dacc150U,
  0x3f0997a7bdb3fe2bU, 0xbf100d003d185c8eU, 0x3f00acd1bdefc9a0U, 0xbd925b5cbdfe27e8U,
  0xbe5b12933ead2234U, 0x3ea40d553ed60a6eU, 0x3f0ed1f13eabca9dU, 0x3dd7a574beae98edU,
  0x3a4c311cbea35a23U, 0xbe07e9443e3b953aU, 0xbdbfc9ce3eb888c2U, 0x3dfbc3e2be78051fU,
  0xbc998edf3df131f3U, 0xbe0772abbee87a5bU, 0xbe055b52bd80776eU, 0x3ea1a9313f240432U,
  0x3ea4d2f83e6ebab1U, 0x3ecb1d67bd418cc3U, 0x3d0704a43e938f0aU, 0x3d33fe0b3e0bf3cdU,
  0x3edc4f3d3a796c8fU, 0x3e43370a3ec059baU, 0x3d20cb153e01a197U, 0xbcbb7ca7be66d3fbU,
  0x3e2185743db48942U, 0xbedd041cbe1a0e8cU, 0x3e52557a3e06ddc2U, 0xbe8ac42fbee0d033U,
  0x3bd54d45be928c45U, 0xbe4ba3d4bcd00c12U, 0x3e2f9956bdc78dd2U, 0xbe6aa4e4bd7d924cU,
  0xbe717527bdfad569U, 0x3f05f822bdde0ad7U, 0xbea80f9b3eaf33f6U, 0x3da46caabeac2351U,
  0xbe5ccf21be624c54U, 0xbca4a8363e621665U, 0xbca449c93e8b878dU, 0x3ed34a603ce6baa6U,
  0x3e36d57abea80227U, 0x3e019b39be8df7c2U, 0xbe88f69bbde81dd5U, 0xbd8d55ed3eb9d38bU,
  0xbe278bcb3e23dc6aU, 0x3e18c6e2be01be5cU, 0xbeaa3a9f3d8864adU, 0x3c4a9ddf3dbc6e6eU,
  0xbd111dc03df2b72aU, 0x3e0d1e353e6de0f2U, 0xbdfa18a23e8f8f6aU, 0xbeb27c153f1ba5c8U,
  0xbe6e22adbe1fd969U, 0x3d03af973e0a6440U, 0xbe085357bec9fea2U, 0x3d23a7d4be8d66d3U,
  0xbe2c6ea13d60e277U, 0x3ee3c63cbe7cef98U, 0xbea66352bbc2cc3bU, 0x3e933dd4bf0874ebU,
  0xbeead229beec7d40U, 0x3d6d4751bbe6f273U, 0x3de59eee3e81c9d7U, 0xbe0d41553c198ef4U,
  0x3efab6193d374bb0U, 0x3eb6efa73ef1bf92U, 0xbe42882e3e196644U, 0x3e55d4b4be6af225U,
  0xbe144b2cbe591ed5U, 0xbea35459bd9a9bfcU, 0x3e9d4a1abe44bc67U, 0x3e41f428be905ad7U,
  0xbef62d333e9ce1a2U, 0xbeb855593ca12673U, 0x3e8d09c83eb53bceU, 0x3f1279a63d108afcU,
  0xbe0bd17abe533c40U, 0x3d2c83ec3e451b08U, 0xbdb8ac15be81ede2U, 0x3e56af03be94bcc5U,
  0x3ea25b74bccabbe1U, 0xbe6fbfae3eaec598U, 0xbe915d073cc1b2c8U, 0xbf0b1878be0ce9e1U,
  0x3e32c7de3e95ee94U, 0x3d8decf83d5505feU, 0xbd2bcd03bcb67894U, 0x3e2c8c99bd57704fU,
  0x3d1a97ba3e8c1179U, 0xbcad45c0bd68a12fU, 0xbe4608bbbed96dcdU, 0x3e7d7a6a3e022388U,
  0x3db135de3e9d17b6U, 0xbec61346be983de1U, 0x3eb02cb23ce390b5U, 0xbc59eaa13e0ff384U,
  0x3e6988b6be13b9f5U, 0xbd703090beba9ae8U, 0xbe5d4bc7beb282d3U, 0x3e7daebb3e6d1394U,
  0x3da2becfbc886eceU, 0xbecef362bef9703bU, 0xbed1c73c3e999a20U, 0x3eb5afbfbe3e2febU,
  0x3d4c1111be923bd4U, 0xba147ed93eda3db9U, 0x3c9dd387bd7b475fU, 0x3e7057723e7e5647U,
  0x3ec393f2be1ab1abU, 0xbd8de547bdc4f25fU, 0x3dca07933e823f22U, 0xbe83a7cc3e933b35U,
  0xbe771be6be8c46aeU, 0xbeb2a4863dc93d27U, 0xbd987f4bbb3d7b9fU, 0x3dae1566befcb9a3U,
  0x3ef8f9c43eab7112U, 0x3e420f41bf1e79e5U, 0xbe26a203be4133bfU, 0xbd98dddd3e226bfdU,
  0x3db0084f3eb78b4fU, 0x3f01955e3c961e2aU, 0xbd87e1a93e33f8baU, 0xbe4c7224bdcc38ddU,
  0x3e852dbfbe505ae5U, 0x3ed2d4e53e8973dfU, 0xbd05efef3ebe4724U, 0xbeef06eb3eea41c0U,
  0x3ebfcc433e92f1faU, 0x3dcaa1123db45ceeU, 0xbe9c35683e9853deU, 0x3e8083f6be97fb19U,
  0xbd897eeb3d47271eU, 0xbe663e393e8cd780U, 0x3c51d050bbec8916U, 0x3cafc0a0bec2a8b8U,
  0xbe3b4b563d98e58fU, 0xbe5c34643db8b640U, 0xbedf370fbd06ffacU, 0x3ec92edfbdf378a0U,
  0xbe506819bd2f3848U, 0xbec119173ed287eeU, 0x3ec0c5a23e14563cU, 0x3ecb553abeb34b86U,
  0xbf0aea053f1ba4fcU, 0xbe2f5777bde9934eU, 0xbe882c303e6ca59cU, 0x3dae15353ea2ecd1U,
  0x3daebdaebe8b808fU, 0x3b1cd0b3beb3f788U, 0x3db70b28be61d2e6U, 0x3e94a7893e55b2c9U,
  0xbee24abfbe98d223U, 0xbe960630be68ccb4U, 0xbe47ff213e921dd9U, 0xbecd7e98bf024b56U,
  0xbe7315733ef8eecaU, 0xbe83072bbedfba6dU, 0xbf3d565abc4aacedU, 0xbe41604eb933d2beU,
  0xbe6950ccbe87d5a6U, 0x3db9b32abdc18bfeU, 0xbe5d3cfabe906332U, 0xbe08116a3e3234f1U,
  0xbe7bae073ea3f77cU, 0xbeb52d80beb66a96U, 0x3ea3127f3dd03b9fU, 0x3e3a37223da2f41bU,
  0x3e85aa0ebed5dafeU, 0xbe82bc483d8e4581U, 0xbe8b701b3e898fc4U, 0x3e8ca3fcbe011b4cU,
  0x3e8e8cc0be30f358U, 0x3e4bb52bbe6a8015U, 0xbe77e5febebd3692U, 0xbeceb151bec34a80U,
  0xbdce2f983e8f1199U, 0x3d8d23efbd5e02acU, 0xbe34112bbed55c88U, 0x3eaf23b9be805ab9U,
  0xbf006c693eef855aU, 0xbe3203933e9432c2U, 0x3ec4f7bebed67031U, 0x3ddf7e503ebb275bU,
  0xbf0f1b653dba5b8fU, 0x3f0391c0beaaa27bU, 0xbe5dc6b43e8fea3bU, 0x3d1423febe6e19bdU,
  0xbe7c9fa83eb69bc7U, 0x3ed26901bce2da3cU, 0x3eedb6d9beea58a0U, 0x3e9037bfbf13e055U,
  0x3e851b4abe396c82U, 0x3cf690e2be8886e1U, 0x3d30b50e3ebac24fU, 0x3e6d4dc53e4e25e3U,
  0xbddf7671bea84daeU, 0x3df8c8ac3ed276d8U, 0x3eef5f45be2fb836U, 0x3e5915b4bf1467bfU,
  0x3e36e0803e63f0c2U, 0xbdc7dd16beaf5d0cU, 0xbe8a52f5bec13ec2U, 0x3e396b953e4c321bU,
  0x3f09817d3e8933d0U, 0xbe0cd3f0bf2d415fU, 0x3d53bbec3e09d61cU, 0x3e98f843bd79bf7aU,
  0x3e9351bf3e1514adU, 0xbe2c38903db1f4d1U, 0x3e26db0b3a6d7cc7U, 0xbea109363e876f43U,
  0xbe3fb335be0da2e8U, 0xbea9587c3ee6b63bU, 0xbe726acebe12ea05U, 0xbd95d9993f0c394fU,
  0xbe97345bbdc89be3U, 0x3da71c7bbf04c2e9U, 0x3e840c7e3e4b10d7U, 0xbe38ce5b3edf96cbU,
  0x3e54ded4be768b1fU, 0xbdd5ea8e3ea2bd9bU, 0x3d8da216bdf0d422U, 0xbea0502dbb10e1a5U,
  0x3eaab9013e72bf7aU, 0x3e51c6c53e2d26f1U, 0x3de8d863beed57a8U, 0xbec3630abd666272U,
  0x3e1dd7cbbf1c6a3aU, 0xbf3f31053e90613fU, 0x3e789d9dbf0d72b8U, 0xbe0ea7563e3cc75cU,
  0x3eb68f1cbe7a025bU, 0xbdde5f2ebd15c465U, 0x3e180c483d680fbbU, 0xbd89f9103e507cc9U,
  0x3d52c3fb3e1fb057U, 0xbdac633fbee6582dU, 0x3daee2763ee18592U, 0xbf18f8bebdc145b3U,
  0x3edb6a8abdb003faU, 0xbdfeda95be957b32U, 0xbe43af08beab3fa9U, 0x3f003409bec6b045U,
  0x3c88b487bd1c0b31U, 0xbca5fadebe524967U, 0xbe26a95cbc71ddd8U, 0x3ea8c2103e62bd54U,
  0xbe86dbba3f06fe68U, 0x3e18c7cabd5e98ccU, 0x3e20f7f6beb219acU, 0xbea90bd2bcb3454fU,
  0xbeaa1add3e0a7f24U, 0x3eba12a1be52b252U, 0xbed796fa3ea4bd1dU, 0xbea4d8adbe759b87U,
  0x3dbd69a2be6842f2U, 0x3dc0909a3e478a3dU, 0xbed3ac703e4764d8U, 0x3cbd2872bb03a8fbU,
  0x3e99cd9fbe7f0957U, 0xbea22a5bbea0b66fU, 0xbeea4d223d26f9bdU, 0xbef3e8613e3794faU,
  0xbec6c49d3b747d45U, 0xbd13843bbdc9231eU, 0xbf0ac9393e1e97a2U, 0x3df888e63e29f483U,
  0xbf06706abe0eefc3U, 0x3e08fb19be3f382dU, 0xbe5873d73d0b0ba2U, 0xbe9fcf38bd4b966fU,
  0xbf16384fbf102b2eU, 0xbf3c06553eaea1deU, 0xbf3014c9bec2a151U, 0x3e43de6a3e178bf6U,
  0x3eabfc0d3e8409ebU, 0x3ea395d4bdbb24adU, 0xbec79dfcbf0539ffU, 0xbea61c39bd33f352U,
  0x3e137c863e9046baU, 0xbe58561abdeffbadU, 0xbd723c1cbd96ebd0U, 0x3e86917cbda8727aU,
  0xbf5b746cbf2d15bdU, 0x3ed84b27bef0848dU, 0x3eaa64b6bf32f87eU, 0xbe019f033e00ea4fU,
  0xbc52a3c7bd9dff36U, 0xbe9b128a3d671f92U, 0xbd164e2e3e20887eU, 0x3da1df3b3d2214a3U,
  0xbd094592be17c8bbU, 0xbf01faf53eb03515U, 0x3e489268beb7a0f1U, 0xbef81c613ea2ae35U,
  0x3e5aa693bf0cd795U, 0xbc870efa3e7a8ce2U, 0xb9a390a63e00e396U, 0xbe6e4435be9804d9U,
  0xbd4e1e65be1588f5U, 0xbdc6a990be82d03eU, 0x3e53af45be59541eU, 0xbf2c9ec2bd64c14cU,
  0x3e9887c3be09b079U, 0xbe2794163e5f854fU, 0x3dd88fb13ed5dd23U, 0xbf09c4253e5785d5U,
  0x3eccbd553dc621d6U, 0x3da92e543d960275U, 0xbe6c892dbce7dcc7U, 0xbe88d6e3be985949U,
  0x3edf8d3c3e7ff673U, 0x3e98c5473ec96802U, 0x3e5290c23e35a166U, 0xbe10fb983db577e4U,
  0x3da4205ebe4a5186U, 0xbe681d1fbdedc8baU, 0xbe9618dcbe8d5c4cU, 0xbee3972fbea53c80U,
  0xbef7af883f24e1bbU, 0x3e8633573d65bd43U, 0x3c56ca3ebe2f5bbeU, 0xbe26a8f5be2fe850U,
  0xbe4658abbceb8f50U, 0xbddff686be45decfU, 0xbe9ae2ed3f0130aaU, 0xbc992d313dc018bcU,
  0xbee3545c3ddf24faU, 0x3daf512c3d34a80dU, 0xbd48ed8abdb3e078U, 0xbf0564523e3d1998U,
  0x3ebf1b9abe010ef8U, 0xbe764f103e116abdU, 0x3d8864c23e28224aU, 0xbee7e1023e262d23U,
  0x3eccd4423e3312f3U, 0x3d94b57bbe6d727dU, 0x3daf263c3e9946b6U, 0x3edd12e7bebfbce6U,
  0x3da39bec3df09163U, 0xbda23862be29a1afU, 0x3f18c434becab472U, 0xbe6d940d3d4980efU,
  0xbe4222553d2bc7e2U, 0x3e5c05fbbdeec0f9U, 0xbc3bed6b3e3d2678U, 0xbea753e43d3d1b7cU,
  0xbef29d5c3ef6c96bU, 0xbd918ef03e83a097U, 0xbedff7113e74c5c2U, 0xbea9b403bde15006U,
  0x3f1275e13ebf946dU, 0x3e88abbd3e227620U, 0x3ca977113e140071U, 0xbd8f437fbeb3d0e8U,
  0x3e679685bd8ec005U, 0x3e80720b3ead803cU, 0xbd9f756c3d8be418U, 0xbeafa3b5bdca329dU,
  0x3eb15422be30f1ccU, 0xbed35240be9af161U, 0x3e5d94c8bf26e8c2U, 0x3e1bca0bbecac863U,
  0x3e1609e93e2f75e1U, 0xbeaa9640be791d03U, 0x3ecc318ebe1c2824U, 0x3db61ec7be14a551U,
  0xbf00b415bea020ceU, 0xbe4b59973f1ab863U, 0xbea1b8803d4784dfU, 0xbc230d26bdd15f6aU,
  0x3ea1b8743ea777cfU, 0xbe99b56a3e874f22U, 0x3e03d8c5bdcf75adU, 0x3dd255853d588901U,
  0xbe09c05b3d659e8fU, 0xbd0172b1bd909122U, 0x3d3ae636be8e5ef7U, 0xbdc80f8bbdd10ef9U,
  0xbc2da4e03eab6de2U, 0xbd5fc1213d90988cU, 0x3d65020b3d3acea0U, 0x3e42c834bd2a0106U,
  0x3e1300933e6eed79U, 0xbe11c9843e457c09U, 0xbe90665b3ec04436U, 0xbe66fe4c3ea7e139U,
  0x3e67e4313d442343U, 0x3e8cb3a6be09dd44U, 0x3e09330ebec2d68fU, 0x3ec67a9f3f0d6b41U,
  0x3d9cf98cbe7f618fU, 0x3bd76955bd863dffU, 0xbe2012cfbe32cc86U, 0xbcdb22063ea8f37aU,
  0xbf21b45b3dfc505dU, 0x3b75aaac3e0cc5d5U, 0x3e32b0fc3dac429eU, 0x3de5ba20bebff83fU,
  0x3e6a794e3e933f13U, 0x3e094d27be8e11abU, 0x3d2a0aea3ecfb804U, 0xbe86f398be45c2a2U,
  0x3e49f9353e3fd36bU, 0x3eb04636bebcb9efU, 0xbe41dc8ebe4f68bbU, 0xbe52c2de3ec62b7dU,
  0x3f0af8763e8acd7aU, 0xbda00065bde31476U, 0xbe96d0d2bb8554b1U, 0x3e7b0fc23dac9bd3U,
  0x3b4377fc3c81f62cU, 0xbeb0be79be9e6c4fU, 0xbd3ae6733d083fa9U, 0xbe720d683ed78633U,
  0xbe8841cfbe9dddd9U, 0xbea386673ebd083eU, 0xbd11800c3e39abb1U, 0xbc66c33dbebc12c0U,
  0x3e5305dfbe0f12beU, 0xbe0875b33dc8ac71U, 0x3e85e5b53c58c5deU, 0x3e319edabe4e1f1fU,
  0xbd03324abe0da682U, 0xbdde16433d3e91e5U, 0x3e9cbd0bbdd2c606U, 0x3e96ffadbe8b20abU,
  0xbe4548c1bded6196U, 0x3e35578fbda2370eU, 0xbebd7ed7bedf081aU, 0x3e933995beb57021U,
  0xbe3ba3b6be685c8aU, 0xbdbd2d52beec0a8cU, 0xbe95b7b03d7c46f5U, 0xbd8df16e3d590038U,
  0x3f0cbea7be41a822U, 0x3e8ff4b2bc8674faU, 0x3ece037abe848140U, 0xbee4e89dbf0220efU,
  0x3e18cc803d1cc90eU, 0xbd582ba83bbcf705U, 0xbea5d0863d35ea25U, 0x3ed81137be9122d2U,
  0x3ee52c51bd890183U, 0xbea5f1e7bedd6b69U, 0x3ebae9bbbc54a133U, 0x3ea9f4c6bd35bae1U,
  0xbd7606b7beb9e29dU, 0xbecdeec6becf0073U, 0xbf05f25abe05c83bU, 0xbde09a933e950030U,
  0x3ddde182be69f99dU, 0xbdaa58d03d94e2c2U, 0xbe75bab0be12aa63U, 0xbe8aa072be68d94bU,
  0xbe04dbc53d4d9b59U, 0x3f1378333d50dae2U, 0xbe1ab750bf0b33d9U, 0xbe4bd5d53e8779eeU,
  0xbde7371a3d61e3a4U, 0x3e02ae5abe91be24U, 0x3f0192f5be40f480U, 0x3d61b2943e0d7ce3U,
  0xbdf97c28bc7db59cU, 0x3c1602f3be1603d7U, 0x3ea1f8213efbc453U, 0x3d6c305c3e926a9bU,
  0xbc3a04d2be8e1837U, 0x3d11aad73e86bd93U, 0xbe919e073d8b8a6dU, 0x3e591b37befe5675U,
  0xbea360833e754a79U, 0x3bf88620be6fc453U, 0xbd6571b1bed635ecU, 0xbe06e5c33e90cba3U,
  0xbdc06ce73ebe4724U, 0x3ea7f1f8be4158a8U, 0x3e8d8ec9be16f662U, 0xbdd4589cbe860fa5U,
  0x3e31f5ee3f1e2b1bU, 0x3d247a2dbee8118dU, 0x3dddcdec3e205592U, 0x3de6f7fcbee22a0dU,
  0xbe7ef693bdff54a8U, 0x3eebc0ea3e84fb5dU, 0x3cd8277abce91dbbU, 0x3d059533be4cff82U,
  0x3d5c83d13e6daeafU, 0x3dccd335bc308fc4U, 0x3ed290e73daf8c3aU, 0xbd1059e03de3e8c2U,
  0xbd146d94bd904a38U, 0xbcb24b7cbec41306U, 0xbdfe1e62bd6cc844U, 0xbdb3d9a93e6309b5U,
  0x3f2a8185bdbd009eU, 0xbbbc59dfbe99d8f7U, 0x3e6a49a2be7bbceeU, 0xbdd274b13cab6e8eU,
  0x3eb2eb43bd6136f7U, 0xbc151d9dbe6ced14U, 0xbe651862be17ba80U, 0xbe84f807bcf957f3U,
  0xbe83938dbd09d1faU, 0xbe69f557bccde7c8U, 0x3e761ff8be91bb83U, 0x3e4556863e2d3b11U,
  0x3d3ed8d3bcdcb9f6U, 0xbd7912d13bce2f13U, 0x3e56546c3e1fdd06U, 0xbc70ba0fbcaa3432U,
  0x3e9a3d013dc11a22U, 0x3bf13eb23e5e6cc1U, 0xbdf7cb443d3ad39bU, 0x3ef0751b3c79bc34U,
  0x3e8039cf3e89c4d3U, 0xbe3a9b773e792103U, 0x3e3974b63da4b589U, 0x3df3f88bbde9bd23U,
  0xbd0436593e01c8e3U, 0x3e0af7debdec8e73U, 0x3e36995cbe6b0f2fU, 0xbe35f516bd20e93eU,
  0x3db1144ebdd65748U, 0xbdd6b003bed82988U, 0xbe4549dfbd1f77d6U, 0x3e99f169be199b4fU,
  0xbd3bc3fcbe1745f9U, 0xbe5e03e6bbc2e561U, 0xbe1962a2bf0fa6eeU, 0xbf0481af3ecd594fU,
  0xbedb5020bec819e7U, 0xbede9cf43ef90c52U, 0xbd151244bdbd50b5U, 0x3ed0a8163d4cc690U,
  0xbe44150f3ed72eb4U, 0xbf205e8abea94e46U, 0x3dd0858ebefa2807U, 0xbe0409373e2d58d7U,
  0xbdbf8f28be1b6323U, 0x3e28cbfcbe8c6823U, 0x3eae2c8dbe8233aeU, 0xbea90e4dbee9815dU,
  0x3ea64b6ebe0c1b72U, 0x3e47cbc13c3a0396U, 0xbb98d6dbbe1cc3adU, 0xbdc3af773db7ccb3U,
  0xbecbb0783e066904U, 0x3e3bb5c2be622eceU, 0xbe91b7623ec3dac5U, 0x3ed37d7dbe1e66f7U,
  0x3e7b94c63e8cc592U, 0x3dfebf68bda95a98U, 0xbca04f41be191ce1U, 0xbd3ecac3be72153dU,
  0x3edb09593d4e3065U, 0x3db97e3abe0c4db5U, 0x3e6d0fb0bede879eU, 0x3e871f3fbee8937bU,
  0xbdb2607fbe8ee00bU, 0x3ec736c8be9d106cU, 0xbef6a1c9bdecb835U, 0xbe2b115d3e1de1c7U,
  0x3e1af04abe0f3213U, 0x3e249ae7be3c2c4cU, 0x3e04f1933c72f227U, 0x3eaa8a913ecf3923U,
  0x3df4e101bf29b93aU, 0x3e74973a3e7e4c77U, 0x3e5ba456bb40e89eU, 0x3db8d8d03d624f56U,
  0x3cab544a3d20c9a1U, 0xbd6f31e83f1eba41U, 0xbeda2c583cefb1daU, 0xbe17253dbd60c10dU,
  0xbe81daa6bd056724U, 0x3e12f62fbe9a181fU, 0x3ec2d65c3e5c6efdU, 0xbdfeeeab3ea40faaU,
  0x3c2ff2e8bd646346U, 0x3f060723babb23c4U, 0x3e8614473ef9264bU, 0x3edbe50f3e703675U,
  0xbf0dda633c4c9ce6U, 0xbe925a1f3e5c8e4aU, 0x3ce0b372be6787f6U, 0x3e48b7efbeaf69f0U,
  0xbdda4b713d2cf57aU, 0xbef09b63bc3c46f6U, 0xbd5d79673ee54cc0U, 0xbe00c1d1bed10608U,
  0x3dab6d1cbe6f9a73U, 0x3e8feec33e249d27U, 0xbe27c101bc858601U, 0x3ef054dfbef2a93eU,
  0x3ec7cdb3be81be2cU, 0xbe507a47be1aa145U, 0xbe4dc1d93e74278fU, 0x3eaa76c6be4d81c2U,
  0xbe540918be845c7eU, 0x3eedbb673ecd2e91U, 0x3e2dcc24be535b6aU, 0xbe231b9e3d29c4bcU,
  0x3e2820c5be136e69U, 0xbca13a35bf0a980fU, 0x3ec1b0a23efa7b98U, 0x3dbb73ddbea283e0U,
  0x3dc3106cbeaeea93U, 0xbe4f85553eb0d783U, 0x3da2776abde1fee8U, 0xbdc621f93f1268b2U,
  0x3e864be0be9c0b7eU, 0x3ba2cea13ea07659U, 0xbe899f7e3e1d3fd3U, 0x3e081c89be8975afU,
  0xbe310d443deca14cU, 0x3e52369c3de224a6U, 0xbe143acfbe1baf80U, 0xbdecf789be241c93U,
  0xbe9e5d8dbdf52925U, 0x3d38392abe3b3212U, 0x3ef3556ebeab4703U, 0x3dc21287be03196dU,
  0x3e6fcb393eb44c68U, 0xbe0439833e19cc64U, 0xbcefe6923d8c94e1U, 0x3e39d5f2bdfa392cU,
  0x3dbdcb503e8aafb4U, 0x3e8b4ea5be99819eU, 0x3a5513cbbe865e43U, 0xbedcd9db3ea81ccdU,
  0xbe3935b53e63df5cU, 0xbe8777bf3e91d057U, 0xbdf36d303dc57105U, 0xbedc914e3dc456d5U,
  0xbe2746123e2a59c6U, 0x3e21bf66be9f3680U, 0x3e66b747beba6e05U, 0xb96a5921beb0db0cU,
  0xbd693130becca49cU, 0x3e9f5a4c3e99e860U, 0x3e83e4d53f212e85U, 0xbced14a6bdc9b1d0U,
  0x3cae6129be0e08ecU, 0xbbbc6362bda04160U, 0xbe9446dd3ceef41bU, 0x3eb7b3e8bda8d005U,
  0x3e2c77ed3e9a54dcU, 0xbe3984ac3dc02816U, 0x3ef7d56e3e47fa1eU, 0xbd389802be9728d3U,
  0x3ea0a4e3be6af427U, 0xbeb6bd66befb47b6U, 0x3e98f732be1adc76U, 0xbd5d14a13f04a82dU,
  0xbe5106b1bec07ab3U, 0x3dc555733e1cc678U, 0xbd9cd7d3bba16fbeU, 0xbe0aa251be6c1f70U,
  0xbe36486dbdf59191U, 0x3e11f0be3d0bf6f3U, 0xbe59c4c0bec18988U, 0x3e7627aebe932b45U,
  0xbe89ee243ec65fc0U, 0xbead7af63e652b41U, 0xbb2166b53d9bf1f6U, 0x3ec0f64ebc9cfef7U,
  0x3db073a4bf0236ccU, 0xbf07e0aabe294245U, 0xbea7e8f73ebc7200U, 0xbe3a59f83caaa532U,
  0xbe94cc723e86d51fU, 0xbcdd22af3e9c7674U, 0x3e4d93dabe38a209U, 0x3e7223fd3de899dfU,
  0x3cb3c396beb00844U, 0xbe18ff153ca7b642U, 0x3e44cfad3b8ea515U, 0x3d81c1193d202ac9U,
  0x3d4c35023e459ba9U, 0xbe2454ee3e0982eaU, 0x3ef35f82bc9fc660U, 0xbea9902a3eab7c62U,
  0x3dfa3ea4be3fdc30U, 0xbe7b99fa3e3bda6dU, 0xbd838c463e4e0501U, 0x3de670373e1eaf49U,
  0x3dbbe7c03e2dd1d1U, 0xbed1392cbd1f5e65U, 0x3ecc92eebe11b4dcU, 0x3ee3e83cbeb65b4aU,
  0xbec177513e43ce56U, 0x3e3aa7a33ecd4bf9U, 0x3e3a1f443e3625f1U, 0xbe7bb3c0be374098U,
  0xbd5b00293dbc4fc4U, 0xbe9ad3d03d360a86U, 0xbebc87f6becdf283U, 0xbe5e6091be8c0100U,
  0x3ea204c1be1d154fU, 0x3ece8806be350c4fU, 0xbd34dec4be8cb083U, 0x3e75954fbed1e787U,
  0x3d71afe4bf0c92a7U, 0x3d271b2fbe5a4599U, 0x3d60ae54be9a7c53U, 0x3ed51dd5bea60bc0U,
  0x3dd960ce3eee04b4U, 0xbe1d8eb93d6f8a86U, 0xbea0011bbc702123U, 0xbe99489a3f289488U,
  0x3e28fa643cf14b50U, 0xbe602a6a3dec69b8U, 0xbe24bf70bd9a28bbU, 0xbe01f16c3e163c6bU,
  0x3ec0c6f6bd693070U, 0x3ec32328beef85dbU, 0xbe4dea083e4fd3a9U, 0x3e51b4f4bed322eeU,
  0x3ec9e5fcbef1d2a3U, 0xbd11c872bdfe9269U, 0x3b9782003eee8d3fU, 0x3dc2c639be8feb6aU,
  0xbdad6d09be900764U, 0xbe3a7d243eb76e21U, 0x3e4721fa3e228e63U, 0x3ebf8cbbbc60fffdU,
  0xbe244a9abdf06afaU, 0xbec028a7bc9a007eU, 0x3e9bd1953ec21be1U, 0x3ea302203d846ef6U,
  0xbf072c11bf0a8ffaU, 0xbcfda5553e2618c8U, 0x3db61f003d8765dbU, 0x3eaa1df5bd65502eU,
  0x3e497ec53ec60d35U, 0xbe67ccb43e99df65U, 0xbe297b293efcc66dU, 0x3e8ae61fbee3f585U,
  0x3e4a79cdbd38cd95U, 0x3e0a4acfbee9c627U, 0xbc9595893e2e15d3U, 0x3f2e3f19be6b5b72U,
  0xbd721d37bc8efa5fU, 0x3e1efcaf3e907866U, 0x3df0721ebe826bb0U, 0xbd54e403be4ff915U,
  0xbd96547ebf01b7fcU, 0x3cf811d23d904496U, 0xbe9669813b89c9f1U, 0xbe35a6f53c76bb06U,
  0x3eed6d273dd1a2f6U, 0x3e97df243e0562f9U, 0x3d387720bd14dc88U, 0xbe95dae3bd00ed28U,
  0xbbf65e80be21ca00U, 0xbe991877be59cb64U, 0xbde7c2babdf64610U, 0x3ef1298fbdd16f94U,
  0x3ee31e47bf1df238U, 0xbeac2e0a3d71761bU, 0xbd4536673e09ce1aU, 0x3ef5584f3e55ea62U,
  0x3df75597bbc74771U, 0xbeb270003d831f87U, 0xbedc22833eac9521U, 0xbd9e8ab83e2632c9U,
  0x3dcf988d3c94c94aU, 0xbe829af0be459107U, 0x3ee9ff393da008d6U, 0x3e5534a6bf030551U,
  0x3ea1e83bbe8a9430U, 0x3d9e5e6f3e41babbU, 0x3d8b34afbd8b5cddU, 0x3e8a500ebe711cfbU,
  0xbd99ceeabe5e508aU, 0xbe74f4fdbe33a2edU, 0xbe7afc98bd409580U, 0x3ab2e900bd65bf17U,
  0xbe110d793e5aeca2U, 0x3ee180cdbe122492U, 0xbe1532233d6c73d6U, 0x3ea127cbbed50be1U,
  0x3da50112be803efdU, 0xbe519a21bea7a8e6U, 0xbe606ce33ec04241U, 0x3bccea363e98438fU,
  0xbd48c5863e0505f0U, 0x3dce32bbbe8a7641U, 0x3e9121523d9a2c67U, 0x3e121f363f13c470U,
  0xbe66f59dbe3cbd29U, 0xbe7576fc3dfbda65U, 0x3e41dc4d3b10e2daU, 0x3e5910713dc5e1d9U,
  0xbd8971263e8d119fU, 0xbe8fd3a83ddd226dU, 0xbdf7eefcbe901c16U, 0xbd9e536e3f3a49c8U,
  0xbe83115c3dc56361U, 0x3e89dd9d3edb10f0U, 0xbd927277be9e9958U, 0xbd1843a73de52effU,
  0xbd7bb7483eebbb84U, 0x3e2786da3ddb7d64U, 0x3dd773d13d295374U, 0x3e20704f3eb80bc5U,
  0xbd8e1040bd7f91daU, 0x3df916af3de8ba16U, 0xbec211a03e3b91d7U, 0xbeb8c7363eb3ddddU,
  0x3e8f518abdeed1f5U, 0x3e24a48cbf0ac89eU, 0x3de6043bbd9b4fa6U, 0xbd9af24b3eb1ce1cU,
  0xbe198123bece53b8U, 0x3f0576f53dd27ff3U, 0x3e955423bdbbaab5U, 0xbeb56987be9dfad9U,
  0xbea65c84be657c7dU, 0x3ec4bf9d3c8b9b37U, 0xbeb5634a3e8343e1U, 0x3e1844cfbed33f2aU,
  0xbf013ed83e8e888cU, 0x3d93c187bf0d5b63U, 0x3e3c4e1d3effe91cU, 0x3cead354be9371eeU,
  0x3d682b70be973d68U, 0x3e11ead13ee6ecf4U, 0x3d89aa933ec4d8ceU, 0x3e63bc9fbe3c96b2U,
  0xbf0df5263ee02526U, 0x3e69be75be6e812aU, 0xbeb04d83bd80d0b1U, 0x3eb77eeebf0e2a2bU,
  0x3ec6b529bdbc4080U, 0x3caed979be71f4a4U, 0xbe81d7a73ee0cf5dU, 0x3da03d60beb6cdbbU,
  0xbc8f7fb93dd266a3U, 0xbe44855e3eb49fc6U, 0x3e8efeb33e7d0300U, 0x3dee8052bf10e927U,
  0x3e36aea63e36b263U, 0x3e0377503bc97483U, 0xbc150cef3e389f2aU, 0xbe984fa1bde33591U,
  0x3dbeeae9be872b6bU, 0x3eb9d05a3e317b42U, 0xbea76ac6be21aa69U, 0x3e96c6ac3e87eca0U,
  0xbe0fcd09bebe1fa8U, 0xbd32b5763e78a305U, 0xbebe67303d8e9ad9U, 0x3e3cdbba3c903ca9U,
  0x3f0488af3d861415U, 0xbb21a71c3e4e1cedU, 0xbeb07b1c3dc9971fU, 0x3d55587d3e7c5a2fU,
  0x3e3b7264bec5a7eaU, 0xbeea55bbbed94bbeU, 0x3ea901f7bec1bccdU, 0xbee465e6be51411dU,
  0xbdad4c59be8f50deU, 0xbe5eecab3e259b5aU, 0x3eadb9963ea33b62U, 0xbefa19e6bea0fe07U,
  0x3e41596b3e6718baU, 0x3e69f983becee64eU, 0xbebe8ebc3e4aaf96U, 0x3ed7c022be62f88aU,
  0x3cac83cd3e23a8b7U, 0xbd684264beaefdd4U, 0xbe9647703e93483fU, 0x3e5def573ddf32aeU,
  0x3e4f85efbe1e3742U, 0x3d0cbe70bdfa7cdbU, 0xbeba8d74be3cf1f0U, 0xbdf69ba53e86c99fU,
  0xbc1ee49b3e394fb7U, 0xbe8443dabe605cd7U, 0x3ea823d0bea45c72U, 0xbeb265613ea53f15U,
  0x3e23b49fbed15469U, 0xbea2dff33d9c0d4eU, 0xbdd70af8be98561aU, 0xbc1f06eabdefbab8U,
  0x3ded7eb9bf0c1f7aU, 0xbd3f6bb5bdab29e2U, 0xbd93c075bf04bd37U, 0x3d33e2693e3a6807U,
  0x3e4e86df3deb5ee9U, 0x3e1441f4be0756dcU, 0xbe1eef133d86673fU, 0xbd5835d73edd889bU,
  0x3dc7b0653d84816cU, 0x3d491682beafed4bU, 0x3d1ecb3a3f00bc2dU, 0xbe97f3343e892965U,
  0xbd730c08bdadc17fU, 0xbe0d1bcd3e52b744U, 0xbee35f0abe9d8c75U, 0x3ee45bee3dab0f37U,
  0xbf0294333e797480U, 0x3daf3f9a3dd94e42U, 0xbed59a23bd4c2081U, 0x3e084f033e2b8fb7U,
  0x3dd1643c3eb63667U, 0xbd049c8e3ef7da70U, 0xbd8a90c43c90afc3U, 0x3e3c6ef2bc7eb0ecU,
  0x3ea35b843e769b33U, 0x3efb6c0f3e801448U, 0x3f25208abee89e4bU, 0xbe1629c8bef18e10U,
  0xbd51d8533b1c29d9U, 0xbc79f9083ebb2d60U, 0xbdba62283dd9a7eeU, 0x3efc631bbeae269eU,
  0x3d3236e13f0cc9f9U, 0x3e261768be5ec133U, 0x3ef072d03ddb6c7cU, 0x3d45ff65be967398U,
  0xbc2569e63e979b4cU, 0xbe3c3ac9beafbde5U, 0x3be45868bdd2ff8dU, 0x3ee122d63eb749d3U,
  0x3dcb6d403e2890daU, 0xbe980573beb4512eU, 0x3cff0655befbc6fbU, 0xbe86bcec3ef27343U,
  0x3e853899bea2b2caU, 0xbf12ca333e7808bbU, 0x3e718552be884515U, 0x3f1551ad3e95de8bU,
  0xbe4960d3be0b18e3U, 0x3e93dfbe3e7bca35U, 0x3e0629073e28a2f0U, 0xbed3fc39be67038fU,
  0x3e5aa18b3e13955eU, 0xbd9e36fd3bcfc17aU, 0x3cbff91c3ef9d573U, 0xbe0ec0153df39efbU,
  0x3dd52fe6bdd4e391U, 0xbe9ef88f3bb057f6U, 0xbcf34dbabe446540U, 0xbd8349edbe3e8e8fU,
  0xbda796aabe8c90d8U, 0xbe16eb8e3eb45febU, 0x3ed516863f0a6d6aU, 0x3f031007bdb59096U,
  0x3f25d6f53e8f6ec5U, 0xbe65ad02bdb8470dU, 0x3d87c190bed4ebb0U, 0x3e9b0ee83e918ccdU,
  0xbbac73be3f033523U, 0x3eeb5700be379c8dU, 0xbee72af13f0720e0U, 0x3da0f8f7be143874U,
  0xbd88427abe9055bdU, 0x3e9c5a91bd86f33aU, 0xbe829b9dbd886487U, 0xbe705e7cbe7f4dafU,
  0xbe9c28e43f25e489U, 0x3dee89283dacbf54U, 0xbebb64923dc311c0U, 0x3da41db4bdd56da8U,
  0xbe29d1fa3e23fb51U, 0xbda711bbbd1778dfU, 0xbeaaecab3e83373eU, 0xbe213069bec639a5U,
  0xbe2e1d213ee36dd8U, 0xbea8a2dfbe41d034U, 0x3ebbb2b73ea3dc62U, 0x3eeedf85be91848eU,
  0x3dc79fd8be02ffa6U, 0xbe9e55a53b925f47U, 0xbe715a8ebe80170cU, 0x3e06a9ef3dc95807U,
  0xbe461ee93ee296beU, 0x3d29382fbcb38011U, 0xbec6a5153dbcf9ecU, 0x3ecf92ae3e1cef89U,
  0x3ea0bc6c3d1c1fc5U, 0xbe80ad91bdf127f5U, 0xbb9ceb5ebe844d1cU, 0xbdee9b863e151e43U,
  0xbe0517f83e1d154aU, 0xbdfd11543d943446U, 0xbe39882bbe37487bU, 0xbea1ae853ef8e469U,
  0x38d53c003ea1ec1bU, 0x3e6aba29be4083edU, 0x3e943b683bf9c0aaU, 0xbe52fc14bf2a3b16U,
  0x3eb88bb8be7e747cU, 0xbe22bca7be395f38U, 0xbc372c303e8a836fU, 0xbe0b6e38be828c1eU,
  0xbe78be533e8c68eaU, 0xba86f2373e1f0456U, 0xbe3fb463be99a472U, 0x3ccb4aacbe8b99ecU,
  0xbd099893bd710d06U, 0x3d6b6553be730c60U, 0xbe455f62be34ad78U, 0x3e08766838b29febU,
  0xbd3aba583ee8295dU, 0xbd13c0f6be637f59U, 0xbe9455dfbdd1311fU, 0x3de942a33ccae4edU,
  0x3ddf1a393de0e5fcU, 0xbd72c55bbe923d78U, 0xbd9f4bdfbdda9c92U, 0xbde53570be30b786U,
  0x3de930363e530facU, 0xbe968ddb3e8ac5b5U, 0x3e3c3355bda5b21cU, 0xbe5f159e3d8768c4U,
  0xbe40ce0c3e24e7e7U, 0x3c7176eabdf8974fU, 0xbea89a0bbe51bbc7U, 0xbd98057aba7fda36U,
  0xbe9366be3e860137U, 0x3e89d262be77783fU, 0x3ccd26d2bd9435d3U, 0x3ed92f0cbddf2868U,
  0x3c99b5d8bd89fc3aU, 0xbe46c556be9287e7U, 0x3edfa2923e834bc1U, 0xbd0ea88dbd93cc87U,
  0x3e20f569bdcae1e7U, 0xbe97d0523d26127eU, 0xbe203f33bd1695caU, 0x3e17e8c5be966b87U,
  0xbd82af39be3cbab2U, 0xbc91a5ecbe1b6ca4U, 0xbd96ec883dc72091U, 0x3e20c872bea4c40aU,
  0xbd476f0ebe30e8f5U, 0x3e0ff6f33e894576U, 0xbe0332e2bdedf99aU, 0x3d5770e3be44216cU,
  0xbe2cc8c1be82b4a6U, 0xbe18e5653f0c27aeU, 0x3c959997bd83f0f7U, 0x3ea707cabcefa22fU,
  0xbd8fb0d0bd94145eU, 0xbd9c8ecebdab659aU, 0x3e686dc23e11bc54U, 0x3d80ace4bdf1cef5U,
  0xbe4ac986be7fa408U, 0xbe54090f3dde7edbU, 0xbdd233563eb71cffU, 0x3e79b0813e5fa612U,
  0xbb5ccdcc3e50360aU, 0x3f1d9c903da4b19cU, 0xbdb5883f3eadc159U, 0xbe02f72a3ec73657U,
  0xbea8ab443e1df1a8U, 0xbe3a45193db094b0U, 0x3f365d15be19453bU, 0x3da17fec3eb4a23eU,
  0xbd7a8adfbe1bb2c7U, 0xbe8543dc3cdb7059U, 0x3c37563c3d6a838dU, 0xbdf7167dbe0e683eU,
  0x3d832926be6f1547U, 0x3dd9fb18bdeffff3U, 0x3d461753bd97be0aU, 0xbd4d3b24bde6e68fU,
  0x3d8d3285be5e7d66U, 0xbe2af7eabdbbdc56U, 0xbe8dabb83c1fba78U, 0xbe380517bdbe4e63U,
  0xbe4cdee13e4de2c9U, 0xbd33774c3e8c28a3U, 0xbe051921bdd23da7U, 0xbd9da5fe3d46d361U,
  0xbe3ec03dbea737d8U, 0x3cf011f93decdb44U, 0xbdda8c623dfedc09U, 0x3e887a433f2fed1cU,
  0xbd1616fd3e2ae223U, 0x3e8a0525beab9687U, 0x3d7f20fbbe661181U, 0xbe819e543d181f00U,
  0x3c3df2bfbc25f55cU, 0xbe0e7053bdc22e51U, 0xbd6cc8b83ea399b0U, 0xbe67bcf33e0ad936U,
  0xbdfc95bebdfdaf5aU, 0xbcf2610d3da40e78U, 0x3c9642553dc6f42bU, 0xbe5edfd2beb3ca5fU,
  0xbe505740bdc95ab1U, 0xbe4448b63e287070U, 0x3d2c9c213e077929U, 0xbda4ac4fbd633811U,
  0x3e7e3789bebd49afU, 0xbe14f2343eaf8badU, 0xbe6e46a6bdad49b4U, 0xbd6ca943bc65478aU,
  0xbdddd8b0be2d32fcU, 0xbe97d35bbe88cbc7U, 0xbdcc67d4bc896a9bU, 0xbe85a1b63d93f077U,
  0xbe2c3cf93e9dc272U, 0xbe46dd20bd85d2bfU, 0xbd76fdc5bdff48d0U, 0x3d327729be4e3f89U,
  0xbe9665f93cd6b9aaU, 0x3cc13740be47f74dU, 0xbe3ef5df3f089520U, 0x3e940773be7de367U,
  0xbd4b1c27bea1a70eU, 0xbd879f053db6e4c3U, 0x3e8cc042bd5af04fU, 0xbe942e553e4a3581U,
  0x3e27f070bd73b4a7U, 0xbde6b4003df3cceaU, 0xbdee5f7cbe06a724U, 0x3ebf2db7be773d70U,
  0x3ecd897ebdd5863cU, 0x3d84884bbf2aa901U, 0xbe15f8cd3de1cf11U, 0xbd8459d0bdbe1915U,
  0xbe5d44a13dff499fU, 0xbe0057b33f03f4caU, 0xbec427b5be917cd3U, 0xbd897c80bc9d9473U,
  0x3ef50840bd9b5a36U, 0xbd9dc155bd518d51U, 0x3d563bf5be4abd4dU, 0x3d005f83bb50bcdeU,
  0xbe8692ef3e7b672aU, 0x3ebb5e61bea53f1fU, 0xbe6c02a6be27a132U, 0x3c84ac99be263d23U,
  0xbf394b443d3adc92U, 0x3d2aaa26be02c3b4U, 0xbe0ad039bd4c62d9U, 0xbe1309f5be4bd9e4U,
  0x3e4cc61d3e9b5883U, 0xbe796aaf3e730d0bU, 0x3e2e4b97baad98a6U, 0x3de372fc3ebf649eU,
  0xbe0f09e03e9940b4U, 0xbc0abfcf3ced04b2U, 0xbe83d5b1beda80b8U, 0xbecfc0dabe8b9dd2U,
  0xbb0dc5aa3e0c8cedU, 0x3e42246cbe0ae582U, 0xbe48b38fbdc7e4c0U, 0x3e5a3a49be46d7f9U,
  0xbd26c7a0bee1e3f1U, 0xbf3f7aafbe5db1ddU, 0x3e6f0c203e611fabU, 0x3e89fd063bdd825aU,
  0x3d8de7e2bc68a938U, 0xbf209875bcaf4234U, 0xbe8d89e1be10f358U, 0x3e93716cbdbc1243U,
  0xbe37a3113d3f584aU, 0x3d540e93be61ea16U, 0x3ee831e43d0a02d6U, 0xbcfb9e89be332323U,
  0xbf008b3abf1d4ee2U, 0xbefa8b693e0680ebU, 0xbe9e89303c4ebe17U, 0xbd991288be6311e8U,
  0xbee305dfbe882fceU, 0xbd12a8633e1290b3U, 0xbe05d979bf00395bU, 0x3e949ee0bea4f500U,
  0xbe91f0efbebe3460U, 0xbe382d22bdd2ae62U, 0x3ec201853e4a14aeU, 0xbcb72a423e415ec5U,
  0x3e9698b7be311e92U, 0xbdeb3487bf4a6149U, 0x3ca9c9db3f1d2b75U, 0x3dc69ebd3e4ceb14U,
  0xbe3f0123bed84515U, 0x3ed79371bd4226a0U, 0xbea4203c3ec87aedU, 0xbca4faea3ec1fb6cU,
  0x3c62613f3f12e847U, 0xbe4c68313e969374U, 0x3ec869b0bae1d8c0U, 0x3e455b793e4538deU,
  0xbbb4b6e53d986e89U, 0xbe8db00a3e229ae9U, 0xbe5bf4223ec98e3dU, 0xbbf04eb4beca3249U,
  0x3dbb2c1dbdd00564U, 0x3e7f37febdc5feaeU, 0x3b56074ebf08d646U, 0xbc42dfd63e69c75bU,
  0x3e4ff3babe047359U, 0xbf0c4cdb3eae7a96U, 0xbcc0ed5fbdb7287cU, 0xbe0aed95bd7e90ffU,
  0xbea6fe3f3e81f3abU, 0x3d7917aa3e9c29e2U, 0x3e0c5930bda3389aU, 0xbc6511aebcfca9bbU,
  0x3b2219d0bde245c0U, 0x3edd875e3c6ebc74U, 0x3e9f220dbeac2bd2U, 0x3e35aaf93e082a1bU,
  0xbdd653bc3e6ff9b2U, 0x3e28b04bbddff983U, 0xbe54eae1be4c2087U, 0xbe3aafc53c46fddaU,
  0xbd712ac53e390093U, 0xbc1fe843bc6d08baU, 0xbe93a6ab3e9d6962U, 0xbf3fca83be9b4d13U,
  0x3e84c65dbd053e22U, 0xbe24e570bcfdc16fU, 0x3e68d37fbee0a67eU, 0xbddb519fbd4f5e94U,
  0xbc661d94bf0868a2U, 0xbede44b43ea0b305U, 0x3de77f5f3dff7fd7U, 0xbe224689bd4f50f2U,
  0x3eae2fe6be48bcacU, 0xbe85d0b13e9ab736U, 0xbe56a51e3cc91d74U, 0x3d2bba663b9563c1U,
  0xbe795ca0bc1e326bU, 0xbdad3719beaeb9c1U, 0x3cfb98b43e0cf923U, 0xbd66bd16beb4f53cU,
  0xbe84ccbd3f024910U, 0xbc509d213ec4e898U, 0x3e8f4d3d3c114805U, 0x3ee6f063be9f8c6dU,
  0x3dc529a73edff81eU, 0x3e7e9c9cbd975121U, 0xbdac2f493e894c8dU, 0x3e9e48bc3e4a47e5U,
  0xbe6d4f12be1e3998U, 0xbe7704ce3e0136a9U, 0x3dfdd7353eef707fU, 0xbf16ce2f3e524015U,
  0xbcd9db86beb2bba7U, 0x3ea9927f3e62b547U, 0xbdcfcd2fbcbc6456U, 0x3ebf82363c83a0d7U,
  0x3e5f3f683d4aebaeU, 0xbe4287883e94d0d3U, 0x3e88393d3e6ad434U, 0xbdda2690be15283eU,
  0xbdbdfcd03e0e455eU, 0xbe7b91a7bda3a8c4U, 0x3d8119e0be2c76d3U, 0x3d9fef21bbd08e94U,
  0x3da3aca4bd4fa9d0U, 0xbe28e89bbe734e4bU, 0x3c4a4c8ebdb9ef7aU, 0x3d0cb51fbe3ac4ddU,
  0x3d6a16003d7f95b4U, 0x3d6297ffbe260ae6U, 0xbe3049e63d2a45dfU, 0xbe2885cbbd2b26c2U,
  0x3e0a354abe511671U, 0x3df61615be7655aaU, 0xbe4e4380bdba34bfU, 0xbe8631203d531445U,
  0x3e94c1cfbdba0b4dU, 0xbdc1314d3dd5f69bU, 0xbd53f656be113daaU, 0x3e375f1ebeaae247U,
  0xbdbbb9debe40efa9U, 0xbe141c8a3d250f25U, 0xbe15f81a3da06be5U, 0x3d5b8c5d3e015c18U,
  0xbe6569733c8e5ccdU, 0x3dddda003d81cbddU, 0x3e2cf6a0be78c89aU, 0xbe2c53ed3e8d8061U,
  0xbdca47393ed54d16U, 0x3d36bf433ca0e16cU, 0x3d71a6d5be31d135U, 0xbe9cd4bb3b9cc234U,
  0xbdb52dbbbce0e2c6U, 0xbd10da0a3db9d0b0U, 0xbdfafea6be3fc8adU, 0x3d0a31c4be7574e7U,
  0xbe20ac813c021597U, 0x3d46870cbe2e16c0U, 0xbdc9b9d33db8d545U, 0x3d4a44e1be4b5849U,
  0x3d77b75b3dec2b6dU, 0x3da2ab2e3e74e2bcU, 0x3e7c25a8bdfdf6bbU, 0xbe19b443bd9f2b9dU,
  0xbdbb2b2cbe5c6f4eU, 0xbc8ada803e9c58edU, 0xbe6da5e63e7a9ad9U, 0x3ecb93ea3e2e83f9U,
  0x3ddce88abdead17aU, 0x3bbee1f8be72ac45U, 0xbcc8d444bea327baU, 0x3ea6217c3c6fd765U,
  0xbed5b06dbeac397dU, 0xbe42ddc63dae074cU, 0x3c7310013e57d8f5U, 0x3e495c8d3c969c1cU,
  0xbe3080133d8f46afU, 0x3e389249be910363U, 0x3d40f3283e77d368U, 0xbd8081bc3edc1a02U,
  0x3c5ac1033d84f5e7U, 0xbdd137cd3e421accU, 0x3d4f674c3ccff2ecU, 0xbde790b73e1538d3U,
  0x3dcea922beb9f644U, 0xbd0bf8973e8bdbd1U, 0xbe6b92c5be58ac60U, 0xbca5e16b3e34a543U,
  0xbe245e43bd7f9b9fU, 0xbd9e2e24bdb2811aU, 0xbdba961abc932071U, 0x3dbfcaca3e876e87U,
  0x3e359f19bd34f72cU, 0xbe009e34bec829caU, 0x3b29c5ebbeb30710U, 0xbe04703dbe6cdc50U,
  0xbd06b664bdac1fecU, 0xbdaf216e3e453baaU, 0x3e28cfbebdb804ecU, 0xbda0d65dbd714d92U,
  0x3d407649be2bfe9dU, 0x3c8ce7e93e4c6c67U, 0x3ead30153f0d7867U, 0x3e07b5fd3e649c09U,
  0xbb053c14bdf1559aU, 0xbe8b185cbe6ce7aaU, 0x3befd372be7df5cbU, 0x3dfb41703d917b27U,
  0xbddc92f43e800dcbU, 0x3c97848f3e2a9ebbU, 0xbdf58cebbd28e51eU, 0x3dbb73c23def4d65U,
  0x3e16cc0dbe1fe1d6U, 0xbdb5bdd93da0e2b6U, 0xbe1c435d3d91aa7fU, 0xbde76a313cc53ac7U,
  0x3cf59871bd1c4dd6U, 0x3bf80ab93e8872b5U, 0x3e4ce0eb3e22f68aU, 0xbdfd34eebd6cb5e6U,
  0xbd94f409be2b7a04U, 0xbe2697bdbe0164a7U, 0xbad0acdcbd7bc478U, 0x3e660c2e3dd3c54fU,
  0xbe192d2dbc7087f0U, 0xbd52346abd095fb9U, 0xbe49b4f23ddc69c0U, 0xbe638925bd67ec66U,
  0xbe6fdf1fbbfdd511U, 0x3e8e7327bd1980ddU, 0x3ccdb8dfbe1bd41bU, 0xbdea4792bb02f93aU,
  0xbd87f79f3df212b7U, 0x3e5cd55dbe0967e7U, 0xbe1952cd3e01e16dU, 0x3e1a02fc3e02e498U,
  0x3d98933dbdb97d53U, 0x3cc9817abe021b7dU, 0x3e93c47e3d873eaeU, 0x3cc8d85d3dd9b1f3U,
  0xbe869100be1e921fU, 0xbe494af03e2885dbU, 0xbe06d78f3dde38eeU, 0xbe34e124bbb44dc9U,
  0x3ea5293abe481095U, 0xbe8c4f1a3ebe5a36U, 0x3e35b5653b90c823U, 0xbdf040773c3c5924U,
  0xbe4ecc95bc37faa7U, 0x3d6691c7be6f75eaU, 0xbe10b081be3b6e69U, 0xbe860cefba46b300U,
  0x3ec691cebe67afb3U, 0x3cc0be8ebe4ddf1cU, 0xbe53d0e03de6bb9eU, 0xbaec85a8bb59aeffU,
  0x3e74bec33e801b84U, 0xbe2a89debe68b596U, 0xbe7802e9bd2a7675U, 0xbdbe27e8bdda471aU,
  0x3ddd0c913dd76ff2U, 0xbe8dc658be851dd1U, 0xbe972763bdaad78bU, 0x3e8155f8be12ce56U,
  0x3e1786033d1f9078U, 0xbe988b003e6a8879U, 0x3deb0206bde011cbU, 0xbea603c13e01ed5eU,
  0xbe5631013ea31da8U, 0xbdea32dcbe3c9cc2U, 0xbeac23dcbd79c9f1U, 0xbd6ace19be8bb88bU,
  0x3d23c45a3dd98593U, 0x3d47d571bd07a6dfU, 0x3e2d1d203c329495U, 0x3d0693b23e9e202dU,
  0xbe5669b53ed224bcU, 0x3de07729be0e7f5cU, 0x3d6880583e801c0cU, 0x3e60afeebbc23e37U,
  0xbe9966053e107ae9U, 0x3e056fbcbe036b28U, 0xbe31c0a33d04b0d6U, 0xbd60eb62be5ddf3aU,
  0x3cb4bbd33c4b64f0U, 0xbd8f04f8bcbb16ceU, 0xbe88d620be198f75U, 0xbe1198e6be90e008U,
  0xbd73c2a1be0490e8U, 0x3ea2bd343cec77d5U, 0xbdd7ed2a3e390653U, 0x3d6635c7bbb23adaU,
  0xbd84a3c23c337f9aU, 0xbd8967963df3aa1dU, 0x3d9023983dfd5799U, 0x3e60ef963dcf8b62U,
  0xbdaa97723e6a4c4fU, 0xbec313633e8213a8U, 0x3ea2f65ebe940cceU, 0x3dd04677be129313U,
  0xbd2dbbd03d7acefbU, 0xbddfd44b3e5b1ecdU, 0xbe28c4e2bc941d89U, 0x3b26fd79bf18167dU,
  0x3b9804043dd3e996U, 0x3e5ff4eb3e86204aU, 0x3c8d78463e792805U, 0x3b3de60d3eb76537U,
  0x3c31588abe982dc1U, 0xbe22b6c13e3727e2U, 0x3ea91176bb76ae3fU, 0x3e28bfc93ddbbc00U,
  0xbee21a873d40e333U, 0xbd76e460bcb4079dU, 0x3e8d1a5e3d0e6fa4U, 0x3a50a9c23e3400b6U,
  0x3e0903b8bdf2694cU, 0xbd29f5fbbc1d34a7U, 0xbe2ff2ae3da8b44bU, 0xbe1305aabed7b13fU,
  0x3ec675433e4ced7dU, 0x3e9e46083eadbdacU, 0xbd16d4013e2d6cb0U, 0xbe1289ee3e207acfU,
  0xbda3795cbea91d0bU, 0xbe027263bde6a4f7U, 0xbf0432d93b1b0481U, 0xbd3087b8bd71ca40U,
  0xbda5ccc2be503dbdU, 0x3eb70facbde6aba0U, 0xbe9a23253ec7fee4U, 0x3e327bdb3e4ab47dU,
  0x3df748b83ddb98f0U, 0x3e82b2923d71692cU, 0x3dd6d678be6c9f4eU, 0xbeab4ababe9cba25U,
  0xbe77af2fbe9266bbU, 0xbd754a0e3e372130U, 0xbd3c117e3e205269U, 0xbd8d3a603d673ae4U,
  0xbe7ea087bdc78d7cU, 0xbe99510f3da7ba3cU, 0x3e37e02f3d27e8d8U, 0x3c8a9af33c4e0865U,
  0x3cff3004bd1198f7U, 0xbdad901c3e0d6170U, 0xbec6b28abd95badcU, 0xbdef2b8abdd56f95U,
  0x3e6409d5beb71660U, 0xbdd22de93e05a536U, 0xbe3e7e78bceb5d14U, 0xbc91dc8dbe11c130U,
  0x3e9d117fbdac5a5eU, 0xbd93c1f5bdb1c9b2U, 0xbd5ed43ebf0b7d81U, 0x3e83d057bcc88b24U,
  0xbe2fad9f3b10c408U, 0xbe0b583e3db04268U, 0xbec21c3e3c7f2392U, 0xbc5eba94bd5678c5U,
  0x3e8d3e193d8a6ac6U, 0x3e70ea07bcde1bd8U, 0xbd6f43f43e4cf76cU, 0x3c8eb421be9bc984U,
  0xbe62fa6fbe5a23cfU, 0x3e9ce2fabe1cdfffU, 0x3ea923e1be910fd5U, 0xbdee9615be6d2554U,
  0x3dca8bb43d14be0dU, 0xbe71c991bd024294U, 0xbdb95eba3e84cb5bU, 0x3e742f48bc87b694U,
  0x3d8f92893e3e1c13U, 0x3c88ca2aU,
};


ai_handle g_myai_weights_table[1 + 2] = {
  AI_HANDLE_PTR(AI_MAGIC_MARKER),
  AI_HANDLE_PTR(s_myai_weights_array_u64),
  AI_HANDLE_PTR(AI_MAGIC_MARKER),
};

